{"version":"1.0","truncation":null,"padding":null,"added_tokens":[],"normalizer":{"type":"NFC"},"pre_tokenizer":{"type":"Sequence","pretokenizers":[{"type":"Split","pattern":{"Regex":"(?i:'s|'t|'re|'ve|'m|'ll|'d)|[^\\r\\n\\p{L}\\p{N}]?[\\p{L}\\p{M}]+|\\p{N}| ?[^\\s\\p{L}\\p{M}\\p{N}]+[\\r\\n]*|\\s*[\\r\\n]+|\\s+(?!\\S)|\\s+"},"behavior":"Isolated","invert":false},{"type":"ByteLevel","add_prefix_space":false,"trim_offsets":false,"use_regex":false}]},"post_processor":{"type":"ByteLevel","add_prefix_space":false,"trim_offsets":false,"use_regex":false},"decoder":{"type":"ByteLevel","add_prefix_space":false,"trim_offsets":false,"use_regex":false},"model":{"type":"BPE","dropout":null,"unk_token":null,"continuing_subword_prefix":"","end_of_word_suffix":"","fuse_unk":false,"byte_fallback":false,"ignore_merges":false,"vocab":{"A":32,"D":35,"M":44,"V":53,"a":64,"b":65,"c":66,"d":67,"e":68,"g":70,"h":71,"i":72,"j":73,"k":74,"l":75,"m":76,"n":77,"o":78,"p":79,"r":81,"s":82,"t":83,"u":84,"v":85,"w":86,"y":88,"z":89,"¡":94,"¢":95,"£":96,"¥":98,"¦":99,"§":100,"¨":101,"©":102,"ª":103,"«":104,"¬":105,"®":106,"¯":107,"°":108,"±":109,"²":110,"³":111,"´":112,"µ":113,"¶":114,"¸":116,"¹":117,"º":118,"»":119,"¼":120,"½":121,"¾":122,"¿":123,"Ã":127,"Ä":128,"Å":129,"Ï":139,"Ð":140,"Ñ":141,"×":147,"Ø":148,"Ù":149,"Û":151,"à":156,"á":157,"ã":159,"ê":166,"ë":167,"ì":168,"í":169,"ï":171,"Ġ":220,"Ģ":222,"ģ":223,"Ĥ":224,"ĥ":225,"Ħ":226,"ħ":227,"Ĩ":228,"ĩ":229,"Ī":230,"ī":231,"Ĭ":232,"ĭ":233,"Į":234,"į":235,"Ķ":242,"ķ":243,"ĸ":244,"Ĺ":245,"Ļ":247,"ļ":248,"Ľ":249,"ľ":250,"Ł":253,"ł":254,"Ń":255,"in":258,"Ġt":259,"er":261,"on":263,"re":265,"at":266,"st":267,"en":268,"le":273,"Ġs":274,"it":275,"an":276,"ar":277,"al":278,"Ġp":280,"is":284,"ing":286,"Ġw":288,"ion":289,"ed":290,"ic":291,"Ġd":293,"Ġm":295,"el":300,"ct":301,"ent":305,"am":308,"Ġre":311,"om":315,"il":319,"se":323,"ch":329,"ut":330,"em":334,"ol":335,"ig":339,"iv":340,"Ġv":343,"ate":344,"ag":346,"us":350,"un":354,"ĠA":357,"ew":360,"ĠM":380,"ap":385,"end":400,"ĠD":414,"de":442,"ore":451,"ill":473,"oc":499,"ib":564,"ak":570,"Ġk":580,"ell":598,"ign":607,"ie":627,"ĠV":629,"Ġun":632,"te":647,"ob":656,"cre":811,"Ã©":933,"ian":1068,"ied":1086,"Ġsc":1100,"Ġz":1110,"ient":1128,"ek":1183,"ĠÐ":1233,"itt":1390,"Ð¾":1403,"Ð°":1424,"Ðµ":1450,"che":1474,"ik":1524,"ĠAs":1577,"ĠÃ":1624,"ÑĤ":1729,"Ã³":1731,"Ð¸":1739,"Ã¡":1886,"Ð½":2040,"oci":2051,"ÑĢ":2115,"ung":2116,"ãģ":2125,"Ñģ":2175,"ãĥ":2687,"ks":2699,"au":2770,"à¸":2927,"Ð»":2941,"Ġpo":3091,"ãĤ":3293,"Ä±":3649,"Ñĥ":3652,"unt":3722,"ico":3822,"zy":4107,"Ġtre":4118,"Ñĭ":4403,"ka":4405,"Ðº":4640,"ÑĮ":4669,"cs":4682,"Ġë":4975,"Ãª":5325,"ani":5385,"ï¿":5389,"Ġren":5494,"men":5498,"ï¿½":5513,"Ø§":5525,"Ġpen":5572,"ĠÐ²":5624,"Ñĩ":5831,"ĠVer":6054,"Ð¼":6240,"ÑģÑĤ":6389,"Ð´":6733,"ÅŁ":6996,"usion":7321,"ÐµÑĢ":7358,"ĠÐº":7422,"Ð°ÑĤ":7721,"Ð¿":7754,"à¹":7901,"ÐµÑĤ":7921,"ĠMill":7963,"ÙĦ":8270,"di":8317,"Ġê":8356,"iber":8365,"kan":8392,"ĠØ":8538,"Ð¾ÑĢ":8789,"Ġscr":8951,"aks":9518,"Ð±":9629,"Ùħ":9873,"ti":9945,"ÑĨ":10064,"Ġped":10164,"iento":10556,"à¦":10802,"Ãµ":10827,"war":11126,"ãĥ¼":11373,"ÙĨ":11460,"aniel":11703,"Ð¹":11796,"ÙĪ":12290,"ingu":12442,"ĠØ§":12589,"ÐºÐ°":12751,"Ø¯":12940,"Ð½Ð¾":13292,"ĠDa":13827,"Øª":13883,"ÛĮ":13978,"ÑĨÐ¸":14666,"ãģ¯":14876,"Ð³":14942,"ãĥ³":15237,"Ð°Ð»":15481,"Ã©m":16157,"Ġê°":16286,"ĠÃ¶":16445,"Ð¶":16467,"ĠØ§ÙĦ":16660,"ĠÏ":16872,"eln":16937,"Ð°Ñģ":17417,"ĠÑĢ":17569,"ÑĦ":18768,"ãģ«":19054,"à¹ī":19236,"ë¦":19485,"à¸Ļ":19571,"à¸²":20141,"ĠÐ²Ñĭ":20177,"utt":20192,"Ùģ":20291,"ãĤ¹":20996,"kom":21413,"ÑĢÐ°":21441,"à¸£":21596,"ĠÐŁ":21720,"amiento":22110,"à¸Ń":22216,"Ø¹":22500,"à¸±":22547,"ĠÙħ":22639,"Ã®":23381,"ĠÐ³":23947,"áĢ":24045,"à¸ģ":24400,"lÄ±":24796,"íĬ":24885,"ãģª":24950,"à¸¡":25443,"Ð°ÐµÑĤ":26046,"ÙĤ":26598,"ĠÐ¡":26607,"ãģŁ":26718,"à¹Ģ":26986,"Ġà":27076,"ë¦¬":27096,"Ð»ÑĮ":27112,"aky":27189,"à¸µ":27399,"íĬ¸":27691,"Ġï¿½":28373,"ãĤĬ":29342,"ìķ":29405,"à¸¥":30739,"ãĤĤ":30831,"Ä±ÅŁ":31400,"Ð¸ÑģÑĤ":32884,"Ã³g":33255,"à¸¢":33364,"ieg":33852,"£¼":33982,"Ġà¦":34014,"à¸Ĺ":34694,"à¸ļ":34947,"à¸Ķ":35804,"à¸§":35982,"obre":36364,"ãĥ¡":37468,"Ð»Ð¾":37483,"kap":37549,"à¸«":37875,"ĠØª":38128,"à¸ķ":38534,"à¸Ħ":38991,"à¦¾":39947,"Ġpend":40156,"à¸¹":40211,"ãģ¡":41004,"ĠÐľ":42886,"Ġkap":43356,"Ġê³":43624,"×Ķ":44436,"ÐºÐ¾":45527,"Ġzm":45556,"Ð¸Ð¿":45768,"ì¹":46371,"¡°":47167,"Ø§Ùħ":47727,"à¹Ħ":48083,"ĠÙĨ":48556,"Ġung":48790,"Ä±lÄ±":50420,"Ð»ÑĮÑĤ":50758,"ĠØ§ÙĦÙħ":51686,"ì£¼":52506,"à¸Ľ":52846,"ÑĥÑĢ":53555,"à¹Į":53900,"ÑĨÐ¸Ð¸":54201,"ĠÙĦ":54895,"Ġmau":56921,"ĠØ³":57823,"à¦¿":59283,"ĠÐ²ÑĭÐ±":60034,"ãģ¿":60896,"ÑĩÐµÑĤ":61087,"Ð¼Ð¸":61628,"ÑĥÐ»ÑĮÑĤ":62709,"íĮ":63886,"Ñį":65131,"à¹ģ":68888,"cter":71549,"Ð¸ÐºÐ°":71658,"ĠÑĢÐ°Ñģ":75117,"à¹ĩ":80409,"à¸±à¸ļ":80665,"ãģ¡ãģ¯":82561,"à¦¨":83558,"lut":83855,"ĠÐºÐ¾":84400,"ãĤª":86770,"ì¡°":89620,"Ġpeny":89733,"Ġà°":90042,"Ġê³Ħ":90952,"Ġà¹Ģ":91218,"ì¦":91685,"à¸²à¸¡":148291,"à¸£à¹Į":148313,"à¸©":148320,"à¸²à¸ģ":148321,"à¸ł":148322,"à¸±à¸ģ":148328,"Ø§Ø¹":148342,"Ð¶Ð´":148343,"à¸Ħà¸§":148351,"à¸Ķà¹ī":148363,"à¹Ģà¸ģ":148385,"à¸Ħà¸§à¸²à¸¡":148392,"à¸Ńà¸£à¹Į":148394,"à¹Ħà¸Ķà¹ī":148422,"à¸±à¸Ķ":148433,"à¸£à¸±à¸ļ":148456,"à¸łà¸²":148486,"à¦²":148506,"à¸ī":148549,"áĢº":148612,"ĠØªØ¹":148639,"ÙĦÙģ":148641,"Ð¾ÑĢÐ°":148676,"ÙĦØ§Ùħ":148802,"à¸Ĺà¸¢":148818,"Ġà¦¬":148865,"à¸ķà¹Į":148866,"ÙĤØ¯":148893,"Ġë¯":148904,"Ġà¸¡":148907,"à¹Ĭ":148937,"à¸¹à¸ģ":148947,"à¸«à¸²":149004,"à¸Ľà¸£":149020,"ÐµÑĢÐ¸":149098,"ìķ½":149109,"ãĥľ":149113,"Ġà¸¥":149149,"Ġà¬":149246,"ãĤ½":149261,"áĢ¬":149263,"ÐºÐ¾Ð½Ð¾":149310,"Ð¸ÑģÑĤÑĢÐ°":149457,"à¸©à¸²":149647,"Ġê°ķ":149664,"ĠÙĨÙħ":149735,"ĠáĢ":149747,"à¹Ħà¸Ĺà¸¢":149826,"à¹ĩà¸ļ":149836,"ì¹´":149969,"×ĸ":149984,"áĢķ":149999,"áĢĻ":150002,"à¹ģà¸Ĺ":150103,"ì¦Ī":150210,"áĢĶ":150227,"áĢ¼":150232,"à¹Ħà¸Ķà¹īà¸£à¸±à¸ļ":150300,"à¦¿à¦¨":150393,"íĮĮ":150484,"à¦Ĥ":150521,"ÐºÐ¾Ð½Ð¾Ð¼Ð¸":150662,"ÑĦÐ¸ÐºÐ°":150711,"à¸µà¸Ļ":151094,"à¦²à¦¾":151185,"Ġë¯¼":151671,"à¹Ĭà¸ģ":151819,"Ġà¹Ģà¸§":152398,"à¸Ńà¸£":152714,"Ġà¦¬à¦¾":152778,"ãĤ¹ãĥ¡":152790,"à¸łà¸²à¸©":152825,"ikle":152942,"ĠÐ³Ð¸Ð¿":152946,"à¸łà¸²à¸©à¸²":153871,"ãģ¿ãģ«":153910,"aksin":154228,"ĠÐºÑĥÐ»ÑĮÑĤ":154360,"à¹Ħà¸Ķ":156167,"à¹Ģà¸ģà¸Ńà¸£à¹Į":156235,"ungkap":156467,"ãĤ¹ãĤ¹ãĥ¡":156758,"ãģ¡ãģª":156770,"csol":156824,"à¸īà¸ļ":157341,"Ġà¦¬à¦¾à¦Ĥ":158443,"áĢĶáĢº":161567,"ĠÐ²ÑĭÐ±Ð¾ÑĢÐ°":162364,"reiber":162365,"ÑįÐºÐ¾Ð½Ð¾Ð¼Ð¸":162366,"ĠÐ¡ÐºÐ°":162369,"ellikle":162370,"ãĤĤãĤĬ":162371,"à¸Ħà¸±à¸Ķ":162372,"ksom":162373,"Ġpobre":162374,"à¦¿à¦¨à¦¿":162375,"waran":162376,"à¹Ĭà¸ģà¹Ģà¸ģà¸Ńà¸£à¹Į":162378,"ĠÙħÙĦÙģ":162379,"ĠdÄ±ÅŁ":162382,"Ġvaksin":162383,"ë¦¬ì¹´":162384,"ĠÐºÑĥÐ»ÑĮÑĤÑĥÑĢ":162385,"Ġê°ķì¡°":162386,"Ġà¹Ģà¸§à¹ĩà¸ļ":162387,"à¹Ħà¸Ķà¹īà¸£à¸±à¸ļà¸Ħà¸§à¸²à¸¡":162388,"ĠÏī":162391,"Ġê³Ħìķ½":162392,"×ĸ×Ķ":162393,"Ġë¯¼ì£¼":162394,"Ã³gico":162395,"ãĤªãĤ¹ãĤ¹ãĥ¡":162396,"ÑĦÐ¸ÐºÐ°ÑĨÐ¸Ð¸":162397,"ãģŁãģ¡ãģ¯":162398,"Ġmauv":162399,"Ġscriv":162400,"Ġwied":162401,"Ġà¸¥à¸¹à¸ģ":162404,"ĠDic":162405,"áĢķáĢ¼":162406,"Ð³Ð¸ÑģÑĤÑĢÐ°":162407,"Ġtrein":162408,"ungkapkan":162409,"Ġpenyel":162410,"ĠØªØ¹Øª":162411,"Ġungkap":162412,"ĠÙĦÛĮ":162413,"ĠpÃµ":162414,"Ġà¸¡à¸«à¸²":162415,"Ġpozy":162416,"ë¦¬ì¦Ī":162417,"à¸Ľà¸£à¸²à¸ģ":162418,"Ġrekom":162419,"à¸¡à¸±à¸ģ":162420,"Ġkew":162421,"Ġkapcsol":162422,"credi":162423,"ãĤ½ãĥ³":162424,"ĠÙĦØ§Ø¹":162425,"ãģ¡ãģªãģ¿ãģ«":162426,"ĠØ§ÙĦÙħÙĤØ¯":162427,"untamiento":162428,"Ã¡cter":162429,"ĠÐºÐ¾Ð¹":162430,"ĠØ³ÙĦØ§Ùħ":162431,"ĠÐŁÐ»Ð¾":162432,"Ġpendek":162433,"Ġrense":162434,"Ġrenseign":162435,"ĠVerka":162436,"ĠDaar":162437,"Ä±lÄ±r":162438,"ĠÙĨÙħÙĪ":162439,"ĠÑĢÐ°ÑģÑĩÐµÑĤ":162442,"Ð¶Ð´Ð°ÐµÑĤ":162443,"inguÃ©m":162444,"stieg":162445,"ãĥľãĥ¼":162446,"Ãªche":162447,"ĠMilli":162448,"Ġà°°":162449,"Ġà¬ķ":162450,"Ġpedag":162451,"Ã®te":162452,"ĠAsoci":162455,"uttore":162456,"íĮĮíĬ¸":162457,"à¹ģà¸Ĺà¹ī":162458,"ĠÐ³Ð¸Ð¿ÐµÑĢ":162459,"Ġzmian":162460,"à¸īà¸ļà¸±à¸ļ":162461,"jde":162462,"Ġà¦¬à¦¾à¦Ĥà¦²à¦¾":166781,"ĠáĢĻ":187686,"à¸łà¸²à¸©à¸²à¹Ħà¸Ĺà¸¢":229936},"merges":["i n","Ġ t","e r","o n","r e","a t","s t","e n","l e","Ġ s","i t","a n","a r","a l","Ġ p","i s","in g","Ġ w","i on","e d","i c","Ġ d","Ġ m","e l","c t","en t","a m","Ġ re","o m","i l","s e","c h","u t","e m","o l","i g","i v","Ġ v","at e","a g","u s","u n","Ġ A","e w","Ġ M","a p","en d","Ġ D","d e","o re","il l","o c","i b","a k","Ġ k","el l","ig n","i e","Ġ V","Ġ un","t e","o b","c re","Ã ©","i an","i ed","Ġs c","Ġ z","i ent","e k","Ġ Ð","it t","Ð ¾","Ð °","Ð µ","ch e","i k","ĠA s","Ġ Ã","Ñ Ĥ","Ã ³","Ð ¸","Ã ¡","Ð ½","oc i","Ñ Ģ","un g","ã ģ","Ñ ģ","ã ĥ","k s","a u","à ¸","Ð »","Ġp o","ã Ĥ","Ä ±","Ñ ĥ","un t","ic o","z y","Ġt re","Ñ ĭ","k a","Ð º","Ñ Į","c s","Ġ ë","Ã ª","an i","ï ¿","Ġre n","m en","ï¿ ½","Ø §","Ġp en","ĠÐ ²","Ñ ĩ","ĠV er","Ð ¼","Ñģ ÑĤ","Ð ´","Å Ł","us ion","Ðµ ÑĢ","ĠÐ º","Ð° ÑĤ","Ð ¿","à ¹","Ðµ ÑĤ","ĠM ill","Ù Ħ","d i","Ġ ê","ib er","k an","Ġ Ø","Ð¾ ÑĢ","Ġsc r","ak s","Ð ±","Ù ħ","t i","Ñ Ĩ","Ġp ed","ient o","à ¦","Ã µ","w ar","ãĥ ¼","Ù Ĩ","ani el","Ð ¹","Ù Ī","ing u","Ġ Ø§","Ðº Ð°","Ø ¯","Ð½ Ð¾","ĠD a","Ø ª","Û Į","ÑĨ Ð¸","ãģ ¯","Ð ³","ãĥ ³","Ð° Ð»","Ã© m","Ġê °","ĠÃ ¶","Ð ¶","ĠØ§ ÙĦ","Ġ Ï","el n","Ð° Ñģ","Ġ ÑĢ","Ñ Ħ","ãģ «","à¹ ī","ë ¦","à¸ Ļ","à¸ ²","ĠÐ² Ñĭ","ut t","Ù ģ","ãĤ ¹","k om","ÑĢ Ð°","à¸ £","ĠÐ Ł","am iento","à¸ Ń","Ø ¹","à¸ ±","Ġ Ùħ","Ã ®","ĠÐ ³","á Ģ","à¸ ģ","l Ä±","í Ĭ","ãģ ª","à¸ ¡","Ð° ÐµÑĤ","Ù Ĥ","ĠÐ ¡","ãģ Ł","à¹ Ģ","Ġ à","ë¦ ¬","Ð» ÑĮ","ak y","à¸ µ","íĬ ¸","Ġ ï¿½","ãĤ Ĭ","ì ķ","à¸ ¥","ãĤ Ĥ","Ä± ÅŁ","Ð¸ ÑģÑĤ","Ã³ g","à¸ ¢","ie g","£ ¼","Ġ à¦","à¸ Ĺ","à¸ ļ","à¸ Ķ","à¸ §","ob re","ãĥ ¡","Ð» Ð¾","k ap","à¸ «","ĠØ ª","à¸ ķ","à¸ Ħ","à¦ ¾","Ġp end","à¸ ¹","ãģ ¡","ĠÐ ľ","Ġk ap","Ġê ³","× Ķ","Ðº Ð¾","Ġz m","Ð¸ Ð¿","ì ¹","¡ °","Ø§ Ùħ","à¹ Ħ","Ġ ÙĨ","Ġun g","Ä± lÄ±","Ð»ÑĮ ÑĤ","ĠØ§ÙĦ Ùħ","ì £¼","à¸ Ľ","Ñĥ ÑĢ","à¹ Į","ÑĨÐ¸ Ð¸","Ġ ÙĦ","Ġm au","ĠØ ³","à¦ ¿","ĠÐ²Ñĭ Ð±","ãģ ¿","Ñĩ ÐµÑĤ","Ð¼ Ð¸","Ñĥ Ð»ÑĮÑĤ","í Į","Ñ į","à¹ ģ","ct er","Ð¸ ÐºÐ°","ĠÑĢ Ð°Ñģ","à¹ ĩ","à¸± à¸ļ","ãģ¡ ãģ¯","à¦ ¨","l ut","ĠÐº Ð¾","ãĤ ª","ì ¡°","Ġpen y","Ġà °","Ġê³ Ħ","Ġ à¹Ģ","ì ¦","à¸² à¸¡","à¸£ à¹Į","à¸ ©","à¸² à¸ģ","à¸ ł","à¸± à¸ģ","Ø§ Ø¹","Ð¶ Ð´","à¸Ħ à¸§","à¸Ķ à¹ī","à¹Ģ à¸ģ","à¸Ħà¸§ à¸²à¸¡","à¸Ń à¸£à¹Į","à¹Ħ à¸Ķà¹ī","à¸± à¸Ķ","à¸£ à¸±à¸ļ","à¸ł à¸²","à¦ ²","à¸ ī","áĢ º","ĠØª Ø¹","ÙĦ Ùģ","Ð¾ÑĢ Ð°","ÙĦ Ø§Ùħ","à¸Ĺ à¸¢","Ġà¦ ¬","à¸ķ à¹Į","ÙĤ Ø¯","Ġë ¯","Ġ à¸¡","à¹ Ĭ","à¸¹ à¸ģ","à¸« à¸²","à¸Ľ à¸£","ÐµÑĢ Ð¸","ìķ ½","ãĥ ľ","Ġ à¸¥","Ġà ¬","ãĤ ½","áĢ ¬","ÐºÐ¾ Ð½Ð¾","Ð¸ÑģÑĤ ÑĢÐ°","à¸© à¸²","Ġê° ķ","ĠÙĨ Ùħ","Ġ áĢ","à¹Ħ à¸Ĺà¸¢","à¹ĩ à¸ļ","ì¹ ´","× ĸ","áĢ ķ","áĢ Ļ","à¹ģ à¸Ĺ","ì¦ Ī","áĢ Ķ","áĢ ¼","à¹Ħà¸Ķà¹ī à¸£à¸±à¸ļ","à¦¿ à¦¨","íĮ Į","à¦ Ĥ","ÐºÐ¾Ð½Ð¾ Ð¼Ð¸","ÑĦ Ð¸ÐºÐ°","à¸µ à¸Ļ","à¦² à¦¾","Ġë¯ ¼","à¹Ĭ à¸ģ","Ġà¹Ģ à¸§","à¸Ń à¸£","Ġà¦¬ à¦¾","ãĤ¹ ãĥ¡","à¸łà¸² à¸©","ik le","ĠÐ³ Ð¸Ð¿","à¸łà¸² à¸©à¸²","ãģ¿ ãģ«","aks in","ĠÐº ÑĥÐ»ÑĮÑĤ","à¹Ħ à¸Ķ","à¹Ģà¸ģ à¸Ńà¸£à¹Į","ung kap","ãĤ¹ ãĤ¹ãĥ¡","ãģ¡ ãģª","cs ol","à¸ī à¸ļ","Ġà¦¬à¦¾ à¦Ĥ","áĢĶ áĢº","ĠÐ²ÑĭÐ± Ð¾ÑĢÐ°","re iber","Ñį ÐºÐ¾Ð½Ð¾Ð¼Ð¸","ĠÐ¡ ÐºÐ°","ell ikle","ãĤĤ ãĤĬ","à¸Ħ à¸±à¸Ķ","ks om","Ġp obre","à¦¿à¦¨ à¦¿","war an","à¹Ĭà¸ģ à¹Ģà¸ģà¸Ńà¸£à¹Į","ĠÙħ ÙĦÙģ","Ġd Ä±ÅŁ","Ġv aksin","ë¦¬ ì¹´","ĠÐºÑĥÐ»ÑĮÑĤ ÑĥÑĢ","Ġê°ķ ì¡°","Ġà¹Ģà¸§ à¹ĩà¸ļ","à¹Ħà¸Ķà¹īà¸£à¸±à¸ļ à¸Ħà¸§à¸²à¸¡","ĠÏ ī","Ġê³Ħ ìķ½","×ĸ ×Ķ","Ġë¯¼ ì£¼","Ã³g ico","ãĤª ãĤ¹ãĤ¹ãĥ¡","ÑĦÐ¸ÐºÐ° ÑĨÐ¸Ð¸","ãģŁ ãģ¡ãģ¯","Ġmau v","Ġscr iv","Ġw ied","Ġà¸¥ à¸¹à¸ģ","ĠD ic","áĢķ áĢ¼","Ð³ Ð¸ÑģÑĤÑĢÐ°","Ġtre in","ungkap kan","Ġpeny el","ĠØªØ¹ Øª","Ġung kap","ĠÙĦ ÛĮ","Ġp Ãµ","Ġà¸¡ à¸«à¸²","Ġpo zy","ë¦¬ ì¦Ī","à¸Ľà¸£ à¸²à¸ģ","Ġre kom","à¸¡ à¸±à¸ģ","Ġk ew","Ġkap csol","cre di","ãĤ½ ãĥ³","ĠÙĦ Ø§Ø¹","ãģ¡ãģª ãģ¿ãģ«","ĠØ§ÙĦÙħ ÙĤØ¯","unt amiento","Ã¡ cter","ĠÐºÐ¾ Ð¹","ĠØ³ ÙĦØ§Ùħ","ĠÐŁ Ð»Ð¾","Ġpend ek","Ġren se","Ġrense ign","ĠVer ka","ĠDa ar","Ä±lÄ± r","ĠÙĨÙħ ÙĪ","ĠÑĢÐ°Ñģ ÑĩÐµÑĤ","Ð¶Ð´ Ð°ÐµÑĤ","ingu Ã©m","st ieg","ãĥľ ãĥ¼","Ãª che","ĠMill i","Ġà° °","Ġà¬ ķ","Ġped ag","Ã® te","ĠAs oci","utt ore","íĮĮ íĬ¸","à¹ģà¸Ĺ à¹ī","ĠÐ³Ð¸Ð¿ ÐµÑĢ","Ġzm ian","à¸īà¸ļ à¸±à¸ļ","j de","Ġà¦¬à¦¾à¦Ĥ à¦²à¦¾","ĠáĢ Ļ","à¸łà¸²à¸©à¸² à¹Ħà¸Ĺà¸¢"]}}